@000 FE1B
@001 0000
@002 0000
@003 0000
@004 0000
@005 0000
@006 0000
@007 0000
@008 0000
@009 0000
@00A 0000
@00B 0000
@00C 0000
@00D 0000
@00E 0000
@00F 0000
@010 0000
@011 0000
@012 0000
@013 0000
@014 0000
@015 0000
@016 0000
@017 0000
@018 0000
@019 0000
@01A 0000
@01B 0000
@01C 0000
@01D 0000
@01E 0000
@01F 0000
@020 0000
@021 0000
@022 0000
@023 0000
@024 0000
@025 0000
@026 0000
@027 0000
@028 0000
@029 0000
@02A 0000
@02B 0000
@02C 0000
@02D 0000
@02E 0000
@02F 0000
@030 0000
@031 0000
@032 0000
@033 0000
@034 0000
@035 0000
@036 0000
@037 0000
@038 0000
@039 0000
@03A 0000
@03B 0000
@03C 0000
@03D 0000
@03E 0000
@03F 0000
@040 FE50
@041 FB0B
@042 FD74
@043 01B1
@044 0111
@045 FF80
@046 FF7F
@047 FEBA
@048 FA8B
@049 F7F0
@04A F941
@04B F9AA
@04C FCFB
@04D FFDA
@04E 08EA
@04F 0301
@050 FB77
@051 FB2A
@052 F967
@053 F5D7
@054 F716
@055 031C
@056 03B2
@057 0347
@058 0486
@059 F71A
@05A 014E
@05B 0059
@05C 0576
@05D 0037
@05E F634
@05F 0112
@060 046F
@061 FAD8
@062 0415
@063 FEA8
@064 00A9
@065 FEAE
@066 FD01
@067 FDFE
@068 00CC
@069 006D
@06A 03EE
@06B FF3B
@06C FD71
@06D FF0D
@06E FA44
@06F FB24
@070 042D
@071 05E2
@072 05FE
@073 0308
@074 0515
@075 0163
@076 03E5
@077 FC9E
@078 FDA9
@079 04C7
@07A 033A
@07B 089F
@07C 01F6
@07D 0330
@07E 013E
@07F 0422
@080 0006
@081 0000
@082 0000
@083 0000
@084 0000
@085 0000
@086 0000
@087 0000
@088 0000
@089 0000
@08A 0000
@08B 0000
@08C 0000
@08D 0000
@08E 0000
@08F 0000
@090 0000
@091 0000
@092 0000
@093 0000
@094 0000
@095 0000
@096 0000
@097 0000
@098 0000
@099 0000
@09A 0000
@09B 0000
@09C 0000
@09D 0000
@09E 0000
@09F 0000
@0A0 0000
@0A1 0000
@0A2 0000
@0A3 0000
@0A4 0000
@0A5 0000
@0A6 0000
@0A7 0000
@0A8 0000
@0A9 0000
@0AA 0000
@0AB 0000
@0AC 0000
@0AD 0000
@0AE 0000
@0AF 0000
@0B0 0000
@0B1 0000
@0B2 0000
@0B3 0000
@0B4 0000
@0B5 0000
@0B6 0000
@0B7 0000
@0B8 0000
@0B9 0000
@0BA 0000
@0BB 0000
@0BC 0000
@0BD 0000
@0BE 0000
@0BF 0000
@0C0 0000
@0C1 0000
@0C2 0000
@0C3 0000
@0C4 0000
@0C5 0000
@0C6 0000
@0C7 0000
@0C8 0000
@0C9 0000
@0CA 0000
@0CB 0000
@0CC 0000
@0CD 0000
@0CE 0000
@0CF 0000
@0D0 0000
@0D1 0000
@0D2 0000
@0D3 0000
@0D4 0000
@0D5 0000
@0D6 0000
@0D7 0000
@0D8 0000
@0D9 0000
@0DA 0000
@0DB 0000
@0DC 0000
@0DD 0000
@0DE 0000
@0DF 0000
@0E0 0000
@0E1 0000
@0E2 0000
@0E3 0000
@0E4 0000
@0E5 0000
@0E6 0000
@0E7 0000
@0E8 0000
@0E9 0000
@0EA 0000
@0EB 0000
@0EC 0000
@0ED 0000
@0EE 0000
@0EF 0000
@0F0 0000
@0F1 0000
@0F2 0000
@0F3 0000
@0F4 0000
@0F5 0000
@0F6 0000
@0F7 0000
@0F8 0000
@0F9 0000
@0FA 0000
@0FB 0000
@0FC 0000
@0FD 0000
@0FE 0000
@0FF 0000
@100 F943
@101 0000
@102 0000
@103 0000
@104 0000
@105 0000
@106 0000
@107 0000
@108 0000
@109 0000
@10A 0000
@10B 0000
@10C 0000
@10D 0000
@10E 0000
@10F 0000
@110 0000
@111 0000
@112 0000
@113 0000
@114 0000
@115 0000
@116 0000
@117 0000
@118 0000
@119 0000
@11A 0000
@11B 0000
@11C 0000
@11D 0000
@11E 0000
@11F 0000
@120 0000
@121 0000
@122 0000
@123 0000
@124 0000
@125 0000
@126 0000
@127 0000
@128 0000
@129 0000
@12A 0000
@12B 0000
@12C 0000
@12D 0000
@12E 0000
@12F 0000
@130 0000
@131 0000
@132 0000
@133 0000
@134 0000
@135 0000
@136 0000
@137 0000
@138 0000
@139 0000
@13A 0000
@13B 0000
@13C 0000
@13D 0000
@13E 0000
@13F 0000
@140 050B
@141 FB23
@142 02DB
@143 0F13
@144 FF3D
@145 0B45
@146 FD06
@147 FBFE
@148 04AF
@149 FA9F
@14A 0484
@14B 008C
@14C 0857
@14D F04A
@14E 0B2B
@14F 0BD3
@150 0000
@151 0000
@152 0000
@153 0000
@154 0000
@155 0000
@156 0000
@157 0000
@158 0000
@159 0000
@15A 0000
@15B 0000
@15C 0000
@15D 0000
@15E 0000
@15F 0000
@160 0000
@161 0000
@162 0000
@163 0000
@164 0000
@165 0000
@166 0000
@167 0000
@168 0000
@169 0000
@16A 0000
@16B 0000
@16C 0000
@16D 0000
@16E 0000
@16F 0000
@170 0000
@171 0000
@172 0000
@173 0000
@174 0000
@175 0000
@176 0000
@177 0000
@178 0000
@179 0000
@17A 0000
@17B 0000
@17C 0000
@17D 0000
@17E 0000
@17F 0000
@180 0057
@181 0000
@182 0000
@183 0000
@184 0000
@185 0000
@186 0000
@187 0000
@188 0000
@189 0000
@18A 0000
@18B 0000
@18C 0000
@18D 0000
@18E 0000
@18F 0000
@190 0000
@191 0000
@192 0000
@193 0000
@194 0000
@195 0000
@196 0000
@197 0000
@198 0000
@199 0000
@19A 0000
@19B 0000
@19C 0000
@19D 0000
@19E 0000
@19F 0000
@1A0 0000
@1A1 0000
@1A2 0000
@1A3 0000
@1A4 0000
@1A5 0000
@1A6 0000
@1A7 0000
@1A8 0000
@1A9 0000
@1AA 0000
@1AB 0000
@1AC 0000
@1AD 0000
@1AE 0000
@1AF 0000
@1B0 0000
@1B1 0000
@1B2 0000
@1B3 0000
@1B4 0000
@1B5 0000
@1B6 0000
@1B7 0000
@1B8 0000
@1B9 0000
@1BA 0000
@1BB 0000
@1BC 0000
@1BD 0000
@1BE 0000
@1BF 0000
@1C0 0000
@1C1 0000
@1C2 0000
@1C3 0000
@1C4 0000
@1C5 0000
@1C6 0000
@1C7 0000
@1C8 0000
@1C9 0000
@1CA 0000
@1CB 0000
@1CC 0000
@1CD 0000
@1CE 0000
@1CF 0000
@1D0 0000
@1D1 0000
@1D2 0000
@1D3 0000
@1D4 0000
@1D5 0000
@1D6 0000
@1D7 0000
@1D8 0000
@1D9 0000
@1DA 0000
@1DB 0000
@1DC 0000
@1DD 0000
@1DE 0000
@1DF 0000
@1E0 0000
@1E1 0000
@1E2 0000
@1E3 0000
@1E4 0000
@1E5 0000
@1E6 0000
@1E7 0000
@1E8 0000
@1E9 0000
@1EA 0000
@1EB 0000
@1EC 0000
@1ED 0000
@1EE 0000
@1EF 0000
@1F0 0000
@1F1 0000
@1F2 0000
@1F3 0000
@1F4 0000
@1F5 0000
@1F6 0000
@1F7 0000
@1F8 0000
@1F9 0000
@1FA 0000
@1FB 0000
@1FC 0000
@1FD 0000
@1FE 0000
@1FF 0000
@200 F094
@201 0000
@202 0000
@203 0000
@204 0000
@205 0000
@206 0000
@207 0000
@208 0000
@209 0000
@20A 0000
@20B 0000
@20C 0000
@20D 0000
@20E 0000
@20F 0000
@210 0000
@211 0000
@212 0000
@213 0000
@214 0000
@215 0000
@216 0000
@217 0000
@218 0000
@219 0000
@21A 0000
@21B 0000
@21C 0000
@21D 0000
@21E 0000
@21F 0000
@220 0000
@221 0000
@222 0000
@223 0000
@224 0000
@225 0000
@226 0000
@227 0000
@228 0000
@229 0000
@22A 0000
@22B 0000
@22C 0000
@22D 0000
@22E 0000
@22F 0000
@230 0000
@231 0000
@232 0000
@233 0000
@234 0000
@235 0000
@236 0000
@237 0000
@238 0000
@239 0000
@23A 0000
@23B 0000
@23C 0000
@23D 0000
@23E 0000
@23F 0000
@240 0D09
@241 F675
@242 0410
@243 090D
@244 FE18
@245 F581
@246 08FA
@247 F5AF
@248 09D6
@249 FD8C
@24A 1445
@24B 003C
@24C F77B
@24D EDE6
@24E FBB7
@24F F9E0
@250 0000
@251 0000
@252 0000
@253 0000
@254 0000
@255 0000
@256 0000
@257 0000
@258 0000
@259 0000
@25A 0000
@25B 0000
@25C 0000
@25D 0000
@25E 0000
@25F 0000
@260 0000
@261 0000
@262 0000
@263 0000
@264 0000
@265 0000
@266 0000
@267 0000
@268 0000
@269 0000
@26A 0000
@26B 0000
@26C 0000
@26D 0000
@26E 0000
@26F 0000
@270 0000
@271 0000
@272 0000
@273 0000
@274 0000
@275 0000
@276 0000
@277 0000
@278 0000
@279 0000
@27A 0000
@27B 0000
@27C 0000
@27D 0000
@27E 0000
@27F 0000
@280 0000
@281 0000
@282 0000
@283 0000
@284 0000
@285 0000
@286 0000
@287 0000
@288 0000
@289 0000
@28A 0000
@28B 0000
@28C 0000
@28D 0000
@28E 0000
@28F 0000
@290 0000
@291 0000
@292 0000
@293 0000
@294 0000
@295 0000
@296 0000
@297 0000
@298 0000
@299 0000
@29A 0000
@29B 0000
@29C 0000
@29D 0000
@29E 0000
@29F 0000
@2A0 0000
@2A1 0000
@2A2 0000
@2A3 0000
@2A4 0000
@2A5 0000
@2A6 0000
@2A7 0000
@2A8 0000
@2A9 0000
@2AA 0000
@2AB 0000
@2AC 0000
@2AD 0000
@2AE 0000
@2AF 0000
@2B0 0000
@2B1 0000
@2B2 0000
@2B3 0000
@2B4 0000
@2B5 0000
@2B6 0000
@2B7 0000
@2B8 0000
@2B9 0000
@2BA 0000
@2BB 0000
@2BC 0000
@2BD 0000
@2BE 0000
@2BF 0000
@2C0 0000
@2C1 0000
@2C2 0000
@2C3 0000
@2C4 0000
@2C5 0000
@2C6 0000
@2C7 0000
@2C8 0000
@2C9 0000
@2CA 0000
@2CB 0000
@2CC 0000
@2CD 0000
@2CE 0000
@2CF 0000
@2D0 0000
@2D1 0000
@2D2 0000
@2D3 0000
@2D4 0000
@2D5 0000
@2D6 0000
@2D7 0000
@2D8 0000
@2D9 0000
@2DA 0000
@2DB 0000
@2DC 0000
@2DD 0000
@2DE 0000
@2DF 0000
@2E0 0000
@2E1 0000
@2E2 0000
@2E3 0000
@2E4 0000
@2E5 0000
@2E6 0000
@2E7 0000
@2E8 0000
@2E9 0000
@2EA 0000
@2EB 0000
@2EC 0000
@2ED 0000
@2EE 0000
@2EF 0000
@2F0 0000
@2F1 0000
@2F2 0000
@2F3 0000
@2F4 0000
@2F5 0000
@2F6 0000
@2F7 0000
@2F8 0000
@2F9 0000
@2FA 0000
@2FB 0000
@2FC 0000
@2FD 0000
@2FE 0000
@2FF 0000
@300 0000
@301 0000
@302 0000
@303 0000
@304 0000
@305 0000
@306 0000
@307 0000
@308 0000
@309 0000
@30A 0000
@30B 0000
@30C 0000
@30D 0000
@30E 0000
@30F 0000
@310 0000
@311 0000
@312 0000
@313 0000
@314 0000
@315 0000
@316 0000
@317 0000
@318 0000
@319 0000
@31A 0000
@31B 0000
@31C 0000
@31D 0000
@31E 0000
@31F 0000
@320 0000
@321 0000
@322 0000
@323 0000
@324 0000
@325 0000
@326 0000
@327 0000
@328 0000
@329 0000
@32A 0000
@32B 0000
@32C 0000
@32D 0000
@32E 0000
@32F 0000
@330 0000
@331 0000
@332 0000
@333 0000
@334 0000
@335 0000
@336 0000
@337 0000
@338 0000
@339 0000
@33A 0000
@33B 0000
@33C 0000
@33D 0000
@33E 0000
@33F 0000
@340 0000
@341 0000
@342 0000
@343 0000
@344 0000
@345 0000
@346 0000
@347 0000
@348 0000
@349 0000
@34A 0000
@34B 0000
@34C 0000
@34D 0000
@34E 0000
@34F 0000
@350 0000
@351 0000
@352 0000
@353 0000
@354 0000
@355 0000
@356 0000
@357 0000
@358 0000
@359 0000
@35A 0000
@35B 0000
@35C 0000
@35D 0000
@35E 0000
@35F 0000
@360 0000
@361 0000
@362 0000
@363 0000
@364 0000
@365 0000
@366 0000
@367 0000
@368 0000
@369 0000
@36A 0000
@36B 0000
@36C 0000
@36D 0000
@36E 0000
@36F 0000
@370 0000
@371 0000
@372 0000
@373 0000
@374 0000
@375 0000
@376 0000
@377 0000
@378 0000
@379 0000
@37A 0000
@37B 0000
@37C 0000
@37D 0000
@37E 0000
@37F 0000
@380 0000
@381 0000
@382 0000
@383 0000
@384 0000
@385 0000
@386 0000
@387 0000
@388 0000
@389 0000
@38A 0000
@38B 0000
@38C 0000
@38D 0000
@38E 0000
@38F 0000
@390 0000
@391 0000
@392 0000
@393 0000
@394 0000
@395 0000
@396 0000
@397 0000
@398 0000
@399 0000
@39A 0000
@39B 0000
@39C 0000
@39D 0000
@39E 0000
@39F 0000
@3A0 0000
@3A1 0000
@3A2 0000
@3A3 0000
@3A4 0000
@3A5 0000
@3A6 0000
@3A7 0000
@3A8 0000
@3A9 0000
@3AA 0000
@3AB 0000
@3AC 0000
@3AD 0000
@3AE 0000
@3AF 0000
@3B0 0000
@3B1 0000
@3B2 0000
@3B3 0000
@3B4 0000
@3B5 0000
@3B6 0000
@3B7 0000
@3B8 0000
@3B9 0000
@3BA 0000
@3BB 0000
@3BC 0000
@3BD 0000
@3BE 0000
@3BF 0000
@3C0 0000
@3C1 0000
@3C2 0000
@3C3 0000
@3C4 0000
@3C5 0000
@3C6 0000
@3C7 0000
@3C8 0000
@3C9 0000
@3CA 0000
@3CB 0000
@3CC 0000
@3CD 0000
@3CE 0000
@3CF 0000
@3D0 0000
@3D1 0000
@3D2 0000
@3D3 0000
@3D4 0000
@3D5 0000
@3D6 0000
@3D7 0000
@3D8 0000
@3D9 0000
@3DA 0000
@3DB 0000
@3DC 0000
@3DD 0000
@3DE 0000
@3DF 0000
@3E0 0000
@3E1 0000
@3E2 0000
@3E3 0000
@3E4 0000
@3E5 0000
@3E6 0000
@3E7 0000
@3E8 0000
@3E9 0000
@3EA 0000
@3EB 0000
@3EC 0000
@3ED 0000
@3EE 0000
@3EF 0000
@3F0 0000
@3F1 0000
@3F2 0000
@3F3 0000
@3F4 0000
@3F5 0000
@3F6 0000
@3F7 0000
@3F8 0000
@3F9 0000
@3FA 0000
@3FB 0000
@3FC 0000
@3FD 0000
@3FE 0000
@3FF 0000
